1010111000010011
1011001011010011
0010001001110110
1011001001010000
0010111011110011
0011000110001100
1011000011011011
0011010111101100
1010100010011111
1010011111100001
0001110110111100
0011011001111110
1011001111011110
0011010111110100
0011011011111100
0011000100110100
0011001100000001
0011001001000001
0010100001001110
1011001000100101
1010111001111000
1011010010110110
1010110101000010
1010111000111111
1010110001000011
0010110101010011
1011010100001110
1010111110000001
1011011100001010
1010011010000011
0011011011001000
0011100000001110
1001111110010101
1011010100111001
0010010110000100
1010011101000110
1011000100010110
1011011110100101
1011000111111111
0011010010000010
0011100001101011
0010111011010000
1011001111000110
1010111110001111
0010111101110111
1011001000011100
1011100011110000
1011010101100010
0011100010101111
0011011000011110
0011000000101111
1011000011101010
0010011001100100
0011000101001010
0011100011000011
0011001101111010
0011000100001010
0011100000000010
0010111111000001
0011001001110000
0010110101111010
1011000110010100
1010101100010010
1011100100000110
1011100100010110
1010001110101011
1011100010111010
1011011100010111
1010110110100101
1011001100001000
1011011001000000
1010011000001011
1011010001000001
0010111110000101
0011011000000101
1011000001000010
1010010010001011
0011010001010010
1010011011000000
0010011111000100
0011100000110011
1011011001100011
1011011111001000
1011010100111011
0010110000111001
0011010000111111
1010101111000011
0011011000001100
0011010111110101
0011010000001100
1011010010011111
1011100000101011
1010010000100010
1011000101011001
0010101000000000
0011001100101101
0011000110101000
0011010011011010
0011000100011100
0010110111110011
1011010011100100
0010110000100010
0010000100100110
0010111100111101
1010111001000101
0011000101011110
1010101101010110
1010011001010110
0011001011001001
0011000010101110
1011011001000100
1011011011000100
0011010010001001
0011001111111010
1011011010100110
1011011101100001
0011101000110010
0010110010101110
0011001001110010
1011001010010110
1011100001011000
0011000100010000
0010110111110011
1011100000110000
1011001000110010
0011100011010000
0010111101011110
0011001111111101
1011011000011110
1011011010111001
0011100000110111
0010111110011001
1011100001110011
1011010011010001
0011101011000001
1011001110111111
1011010111110111
1011010100010110
1011000010111010
1011011011011100
1011011111101110
0011010001101110
0010001110101010
1011000000110001
1010101000111111
1011001110011011
1011000101000110
0011000110001001
1011000010011010
1011010110011110
0011010101001101
0011010100001011
0011000100010101
0010110111001111
0010101110010111
0011010000100111
0011001100000001
0011010101110011
1010010001010001
1010100001110000
0011000011110110
0001110110000000
1010111001100010
0011010011011000
1011001111010011
0011000101000000
0011011101111100
1011011010001111
1010110010101000
0011011011010101
1011011010001100
1010100100110111
0011001100110111
1011010101101010
0010101011101000
0011010100011100
1011100111010010
0011001010111010
0011010010001111
1011100001001010
0011000011101100
0011010100001101
1011100011001010
0010111111000101
0011100010110001
1011100001001110
0011010110011101
0011010110101011
1011011110110101
1010101011010000
1010110111110110
0010100101000110
1010110101110001
1011000000110100
0001111001111011
0010111110010011
1010110001101011
0010010100001100
0010011100111110
1010010010000011
0010101000000010
0011000111111011
1011000010000011
0010111001001100
0011010011011010
0011000010000010
0011000011000001
0010100100000101
0010101001000010
1010010011110100
0011010001011001
0001100011010101
1011001001101100
0011010100000001
1011000001110010
1010110100100111
1011000111111111
1011000111010111
0011000001001011
1011011101110101
0010101010111001
1010010001011010
1011010001010111
0010100111100100
1011010010110010
1011010110101110
1011001111111000
0011000000110011
1011010010011001
0011000110100100
0011010010011101
1011010101101010
0011001110011100
0011010011011011
1011000101110110
1010011010011100
1010101011100101
1011000100000001
0011010110111111
0011000100101101
0011000111010001
0011100000000110
0011001111001010
1011001010000010
0011001000000101
0011010100001000
0011100100010011
0011100111010101
1011000010110111
1011010011011000
1011100111001101
1011011101111111
1011010000111001
1010111001011101
0011010101111011
0011100001111111
0011100111000011
1010110010010000
1011010100001010
1011100110100000
1011011100101100
1011100010100001
1011000111000011
1001010100000011
0011100010011001
0011011100000000
0010110011110101
0010110110110111
1010111000010101
0011010001111001
1010011010111111
0010100000011101
1011001001010111
0011010010000001
0011001101110011
0011001111101010
0011010001110111
0010110100010001
0010111110011111
1010111011111111
1010100110010101
1010111000111110
1011000000001001
1010111011101000
1011000000011010
1010001100110111
1010110101011110
1011001010100010
0011010010011111
0011010001111111
0011001000010001
0011001001100011
0011010101010001
1010100110001101
1011001011110000
1010100010101000
1010110101000110
0010110111101001
1010101011010010
1011100001000111
1011001001010001
0011100100000111
1010100100011001
1011101000000000
0011000010100111
1011001101111000
0011001010110000
0010110110011111
1011011000111010
0011010101101111
0011110001100000
0011010010011110
1011101000011101
0011010101110001
1010111001110100
0010110100010011
1011000001110100
1011011110110000
0010111110010100
0011101010000001
1010101010010111
1011011101011010
0001101101011011
1010011000010010
0011011010010010
0010010100100101
1011010101111010
0011011001111000
1011010100100100
0010010011111101
0011011101111101
1011010010000111
0011011100001110
0011001111010101
1011001000111011
1011001010100001
0011000010111110
1011100100110011
1011010101001001
1011001111111001
1011100010011100
1000000111110101
0011000110010000
1010100000110100
0011010010110000
0011000110000101
1011010001101001
0011010101111110
0010100111110001
1011000011110110
0011011110111100
1011001011110011
1011001100100101
1010101011001101
1011010011110110
1010111110101111
1011000100010000
1011001000011110
0011000011101111
0011000001010111
1011010101110111
0010100001010001
1011000011100111
1010110101011001
0011000110101111
0010111101011101
1011000000011001
1011000100101010
0010100001101100
0010110101101111
0011000010001101
0011001000111101
0011001111011111
0011011110011011
0011010011110000
0011010001110010
0011011011001001
0011001000000111
1011001101011100
0010111011101000
0010101101001101
1011100001110110
1011011001001000
1011011011000010
1011010110111111
1011010101101110
1011010111011001
0011010000010011
0010101000001100
1010110010100001
0011000000110010
1010110010101000
1010000011010101
1010100010001110
1010111101001100
0011000111001010
0011010101011001
0011010010101001
0011010010110101
0011010000010101
0011011011001100
0011010101100010
0011001100000010
0011011001010101
1010100101000001
0011000000100111
0011010110011001
1011011100001100
0010111000100100
1011100110111011
1011001010011000
1011010110101000
1011001010001001
0011011010111111
0011000101110011
0011001100000010
1011001100100010
0011100000000110
1011100000001110
0011001100000001
1011001000011101
1010100111110001
0011100000001001
0011010111110010
0011010100101111
1011010101110111
0011010000000011
1011100111100001
1011001000011010
1011010000001101
1011000001011011
0011011101000110
